<pad>	0
<unk>	0
<s>	0
</s>	0
<0x00>	0
<0x01>	0
<0x02>	0
<0x03>	0
<0x04>	0
<0x05>	0
<0x06>	0
<0x07>	0
<0x08>	0
<0x09>	0
<0x0A>	0
<0x0B>	0
<0x0C>	0
<0x0D>	0
<0x0E>	0
<0x0F>	0
<0x10>	0
<0x11>	0
<0x12>	0
<0x13>	0
<0x14>	0
<0x15>	0
<0x16>	0
<0x17>	0
<0x18>	0
<0x19>	0
<0x1A>	0
<0x1B>	0
<0x1C>	0
<0x1D>	0
<0x1E>	0
<0x1F>	0
<0x20>	0
<0x21>	0
<0x22>	0
<0x23>	0
<0x24>	0
<0x25>	0
<0x26>	0
<0x27>	0
<0x28>	0
<0x29>	0
<0x2A>	0
<0x2B>	0
<0x2C>	0
<0x2D>	0
<0x2E>	0
<0x2F>	0
<0x30>	0
<0x31>	0
<0x32>	0
<0x33>	0
<0x34>	0
<0x35>	0
<0x36>	0
<0x37>	0
<0x38>	0
<0x39>	0
<0x3A>	0
<0x3B>	0
<0x3C>	0
<0x3D>	0
<0x3E>	0
<0x3F>	0
<0x40>	0
<0x41>	0
<0x42>	0
<0x43>	0
<0x44>	0
<0x45>	0
<0x46>	0
<0x47>	0
<0x48>	0
<0x49>	0
<0x4A>	0
<0x4B>	0
<0x4C>	0
<0x4D>	0
<0x4E>	0
<0x4F>	0
<0x50>	0
<0x51>	0
<0x52>	0
<0x53>	0
<0x54>	0
<0x55>	0
<0x56>	0
<0x57>	0
<0x58>	0
<0x59>	0
<0x5A>	0
<0x5B>	0
<0x5C>	0
<0x5D>	0
<0x5E>	0
<0x5F>	0
<0x60>	0
<0x61>	0
<0x62>	0
<0x63>	0
<0x64>	0
<0x65>	0
<0x66>	0
<0x67>	0
<0x68>	0
<0x69>	0
<0x6A>	0
<0x6B>	0
<0x6C>	0
<0x6D>	0
<0x6E>	0
<0x6F>	0
<0x70>	0
<0x71>	0
<0x72>	0
<0x73>	0
<0x74>	0
<0x75>	0
<0x76>	0
<0x77>	0
<0x78>	0
<0x79>	0
<0x7A>	0
<0x7B>	0
<0x7C>	0
<0x7D>	0
<0x7E>	0
<0x7F>	0
<0x80>	0
<0x81>	0
<0x82>	0
<0x83>	0
<0x84>	0
<0x85>	0
<0x86>	0
<0x87>	0
<0x88>	0
<0x89>	0
<0x8A>	0
<0x8B>	0
<0x8C>	0
<0x8D>	0
<0x8E>	0
<0x8F>	0
<0x90>	0
<0x91>	0
<0x92>	0
<0x93>	0
<0x94>	0
<0x95>	0
<0x96>	0
<0x97>	0
<0x98>	0
<0x99>	0
<0x9A>	0
<0x9B>	0
<0x9C>	0
<0x9D>	0
<0x9E>	0
<0x9F>	0
<0xA0>	0
<0xA1>	0
<0xA2>	0
<0xA3>	0
<0xA4>	0
<0xA5>	0
<0xA6>	0
<0xA7>	0
<0xA8>	0
<0xA9>	0
<0xAA>	0
<0xAB>	0
<0xAC>	0
<0xAD>	0
<0xAE>	0
<0xAF>	0
<0xB0>	0
<0xB1>	0
<0xB2>	0
<0xB3>	0
<0xB4>	0
<0xB5>	0
<0xB6>	0
<0xB7>	0
<0xB8>	0
<0xB9>	0
<0xBA>	0
<0xBB>	0
<0xBC>	0
<0xBD>	0
<0xBE>	0
<0xBF>	0
<0xC0>	0
<0xC1>	0
<0xC2>	0
<0xC3>	0
<0xC4>	0
<0xC5>	0
<0xC6>	0
<0xC7>	0
<0xC8>	0
<0xC9>	0
<0xCA>	0
<0xCB>	0
<0xCC>	0
<0xCD>	0
<0xCE>	0
<0xCF>	0
<0xD0>	0
<0xD1>	0
<0xD2>	0
<0xD3>	0
<0xD4>	0
<0xD5>	0
<0xD6>	0
<0xD7>	0
<0xD8>	0
<0xD9>	0
<0xDA>	0
<0xDB>	0
<0xDC>	0
<0xDD>	0
<0xDE>	0
<0xDF>	0
<0xE0>	0
<0xE1>	0
<0xE2>	0
<0xE3>	0
<0xE4>	0
<0xE5>	0
<0xE6>	0
<0xE7>	0
<0xE8>	0
<0xE9>	0
<0xEA>	0
<0xEB>	0
<0xEC>	0
<0xED>	0
<0xEE>	0
<0xEF>	0
<0xF0>	0
<0xF1>	0
<0xF2>	0
<0xF3>	0
<0xF4>	0
<0xF5>	0
<0xF6>	0
<0xF7>	0
<0xF8>	0
<0xF9>	0
<0xFA>	0
<0xFB>	0
<0xFC>	0
<0xFD>	0
<0xFE>	0
<0xFF>	0
▁t	-0
he	-1
▁s	-2
re	-3
is	-4
▁the	-5
▁is	-6
▁a	-7
er	-8
▁T	-9
▁c	-10
ou	-11
in	-12
on	-13
▁b	-14
▁m	-15
le	-16
▁The	-17
ad	-18
▁re	-19
es	-20
el	-21
ve	-22
▁n	-23
ar	-24
nt	-25
▁f	-26
ed	-27
lea	-28
▁y	-29
ho	-30
one	-31
▁read	-32
▁se	-33
▁seed	-34
▁p	-35
▁no	-36
se	-37
ld	-38
ell	-39
ive	-40
it	-41
▁an	-42
▁me	-43
ount	-44
lease	-45
▁tell	-46
▁please	-47
▁bo	-48
zer	-49
or	-50
▁count	-51
▁yes	-52
▁one	-53
ing	-54
▁w	-55
▁*	-56
▁ready	-57
ree	-58
▁ho	-59
▁so	-60
sw	-61
swer	-62
▁hold	-63
▁N	-64
▁five	-65
zero	-66
▁zero	-67
al	-68
▁g	-69
▁W	-70
▁o	-71
▁as	-72
th	-73
▁are	-74
▁answer	-75
ra	-76
▁S	-77
▁ma	-78
▁O	-79
▁Ta	-80
ke	-81
▁A	-82
ha	-83
▁ask	-84
▁sho	-85
▁holds	-86
▁L	-87
▁M	-88
ina	-89
▁Lina	-90
▁Mi	-91
▁Mira	-92
our	-93
ik	-94
iko	-95
▁Niko	-96
vi	-97
ela	-98
▁Sela	-99
▁Tavi	-100
▁Om	-101
▁Omar	-102
▁to	-103
up	-104
▁cup	-105
▁I	-106
qu	-107
ct	-108
ess	-109
ue	-110
▁st	-111
ile	-112
lar	-113
leaf	-114
▁leaf	-115
ll	-116
hell	-117
▁shell	-118
reen	-119
▁green	-120
ig	-121
rt	-122
▁qu	-123
ch	-124
ant	-125
hat	-126
her	-127
ign	-128
ity	-129
ignal	-130
iness	-131
antity	-132
▁short	-133
▁signal	-134
▁quantity	-135
▁readiness	-136
ow	-137
▁bl	-138
▁blue	-139
▁stone	-140
▁tile	-141
▁four	-142
▁sm	-143
▁be	-144
▁tw	-145
▁two	-146
▁th	-147
▁three	-148
ge	-149
large	-150
▁R	-151
▁ne	-152
▁ob	-153
'.	-154
oo	-155
▁'	-156
ady	-157
iss	-158
ooth	-159
▁not	-160
▁you	-161
ither	-162
ready	-163
▁both	-164
▁miss	-165
▁There	-166
▁missing	-167
▁neither	-168
▁co	-169
arm	-170
▁large	-171
▁r	-172
▁smooth	-173
ser	-174
serve	-175
▁warm	-176
▁seeds	-177
▁cups	-178
▁H	-179
hi	-180
je	-181
ly	-182
▁of	-183
me	-184
ny	-185
ri	-186
ti	-187
lor	-188
hich	-189
ject	-190
ould	-191
▁How	-192
▁and	-193
▁for	-194
▁many	-195
▁Which	-196
▁color	-197
▁object	-198
▁ke	-199
▁key	-200
wl	-201
▁bowl	-202
▁bead	-203
▁map	-204
▁ring	-205
ni	-206
keni	-207
kenizer	-208
▁reserve	-209
▁tokenizer	-210
ok	-211
▁book	-212
all	-213
▁beads	-214
▁C	-215
▁G	-216
▁Q	-217
▁Y	-218
im	-219
iv	-220
la	-221
um	-222
ur	-223
ut	-224
▁In	-225
▁Is	-226
▁Na	-227
▁Qu	-228
▁Re	-229
▁ca	-230
▁ha	-231
▁it	-232
▁sh	-233
->	-234
op	-235
st	-236
▁=	-237
act	-238
ain	-239
ber	-240
ery	-241
esp	-242
giv	-243
ond	-244
ont	-245
ord	-246
ply	-247
rop	-248
son	-249
urn	-250
▁->	-251
laim	-252
tion	-253
▁box	-254
▁but	-255
▁num	-256
▁whe	-257
giver	-258
▁Give	-259
▁Name	-260
▁Resp	-261
▁What	-262
▁asks	-263
▁care	-264
▁cont	-265
▁show	-266
▁that	-267
▁turn	-268
▁Query	-269
▁holder	-270
▁number	-271
▁should	-272
▁Respond	-273
▁caregiver	-274
▁*.	-275
gh	-276
ough	-277
▁E	-278
▁F	-279
▁K	-280
▁P	-281
▁d	-282
▁l	-283
▁u	-284
▁red	-285
▁small	-286
▁rough	-287
ea	-288
ef	-289
ic	-290
if	-291
ks	-292
▁An	-293
▁Ea	-294
▁Kn	-295
▁On	-296
▁St	-297
▁We	-298
▁ab	-299
▁ap	-300
▁cl	-301
▁ga	-302
▁gu	-303
▁he	-304
▁in	-305
▁le	-306
▁om	-307
▁or	-308
▁sp	-309
▁tr	-310
▁wa	-311
▁we	-312
▁wh	-313
at	-314
ce	-315
fu	-316
gs	-317
os	-318
ry	-319
als	-320
ars	-321
cri	-322
ead	-323
eak	-324
ely	-325
est	-326
ful	-327
gin	-328
hed	-329
ica	-330
ist	-331
its	-332
ory	-333
own	-334
ted	-335
acts	-336
ains	-337
arks	-338
arry	-339
cord	-340
crip	-341
efly	-342
elon	-343
erti	-344
inis	-345
ived	-346
iven	-347
orre	-348
osed	-349
ouch	-350
prop	-351
rast	-352
riat	-353
sent	-354
sson	-355
ther	-356
vent	-357
▁One	-358
▁Who	-359
▁You	-360
▁bri	-361
▁des	-362
▁has	-363
▁may	-364
▁now	-365
▁per	-366
▁use	-367
▁was	-368
ifica	-369
quest	-370
stead	-371
veals	-372
▁Each	-373
▁Fact	-374
▁Prop	-375
▁Take	-376
▁Your	-377
▁call	-378
▁clar	-379
▁gave	-380
▁have	-381
▁here	-382
▁list	-383
▁make	-384
▁pain	-385
▁rece	-386
▁some	-387
▁star	-388
▁them	-389
▁true	-390
▁were	-391
▁what	-392
▁when	-393
▁word	-394
▁your	-395
eaking	-396
elongs	-397
erties	-398
essing	-399
orrect	-400
served	-401
▁Claim	-402
▁Count	-403
▁Known	-404
▁Reply	-405
▁Stars	-406
▁Touch	-407
▁Would	-408
▁asked	-409
▁begin	-410
▁carry	-411
▁claim	-412
▁facts	-413
▁finis	-414
▁given	-415
▁marks	-416
▁omits	-417
▁reply	-418
▁shown	-419
▁shows	-420
▁there	-421
▁while	-422
riately	-423
ventory	-424
▁Answer	-425
▁Record	-426
▁absent	-427
▁approp	-428
▁closed	-429
▁lesson	-430
▁person	-431
▁useful	-432
cription	-433
▁belongs	-434
▁briefly	-435
▁correct	-436
▁instead	-437
▁painted	-438
▁request	-439
▁reveals	-440
▁whether	-441
ification	-442
▁Touching	-443
▁carrying	-444
▁contains	-445
▁contrast	-446
▁finished	-447
▁guessing	-448
▁observed	-449
▁received	-450
▁speaking	-451
▁Inventory	-452
▁Properties	-453
▁description	-454
▁appropriately	-455
▁clarification	-456
ellow	-457
▁yellow	-458
▁cold	-459
sm	-460
▁(	-461
none	-462
small	-463
co	-464
cold	-465
warm	-466
rough	-467
smooth	-468
).	-469
▁0	-470
▁1	-471
▁2	-472
▁3	-473
▁4	-474
▁5	-475
▁6	-476
▁7	-477
▁8	-478
▁9	-479
▁B	-480
▁D	-481
▁J	-482
▁U	-483
▁V	-484
▁X	-485
▁Z	-486
▁x	-487
▁z	-488
▁j	-489
▁q	-490
▁k	-491
▁v	-492
▁h	-493
▁e	-494
▁i	-495
▁00	-496
▁01	-497
▁02	-498
▁03	-499
▁05	-500
▁08	-501
▁12	-502
▁13	-503
▁14	-504
▁17	-505
▁18	-506
▁20	-507
▁30	-508
▁31	-509
▁32	-510
▁35	-511
▁38	-512
▁41	-513
▁43	-514
▁44	-515
▁46	-516
▁51	-517
▁52	-518
▁53	-519
▁54	-520
▁55	-521
▁56	-522
▁65	-523
▁66	-524
▁72	-525
▁74	-526
▁78	-527
▁80	-528
▁81	-529
▁83	-530
▁85	-531
▁86	-532
▁87	-533
▁89	-534
▁96	-535
▁97	-536
▁AC	-537
▁AD	-538
▁AE	-539
▁AH	-540
▁AK	-541
▁AL	-542
▁AO	-543
▁AQ	-544
▁AS	-545
▁AT	-546
▁AU	-547
▁AY	-548
▁Aa	-549
▁Ab	-550
▁Ae	-551
▁As	-552
▁At	-553
▁Ax	-554
▁Ay	-555
▁Az	-556
▁BF	-557
▁BH	-558
▁BI	-559
▁BO	-560
▁BU	-561
▁BV	-562
▁Bd	-563
▁Bg	-564
▁Bj	-565
▁Bp	-566
▁Bq	-567
▁Br	-568
▁Bu	-569
▁CB	-570
▁CK	-571
▁CL	-572
▁CQ	-573
▁CR	-574
▁CS	-575
▁CT	-576
▁CU	-577
▁CV	-578
▁CW	-579
▁Cb	-580
▁Cf	-581
▁Ck	-582
▁Cl	-583
▁Cm	-584
▁Cn	-585
▁Cp	-586
▁Cs	-587
▁Ct	-588
▁Cw	-589
▁Cx	-590
▁Cz	-591
▁DA	-592
▁DC	-593
▁DI	-594
▁DK	-595
▁DN	-596
▁DU	-597
▁DW	-598
▁De	-599
▁45	-600
▁60	-601
▁AJ	-602
▁Ak	-603
▁BB	-604
▁BM	-605
▁Dj	-606
▁Dl	-607
▁Dn	-608
▁Dz	-609
▁EH	-610
▁EJ	-611
▁EL	-612
▁ES	-613
▁ET	-614
▁EX	-615
▁Ee	-616
▁Ef	-617
▁Eg	-618
▁En	-619
▁Er	-620
▁Eu	-621
▁Ew	-622
▁Ez	-623
▁FE	-624
▁FK	-625
▁FM	-626
▁FO	-627
▁FQ	-628
▁FR	-629
▁FT	-630
▁FX	-631
▁FY	-632
▁Fa	-633
▁Fe	-634
▁Fm	-635
▁Fs	-636
▁Ft	-637
▁Fu	-638
▁Fx	-639
▁GC	-640
▁GF	-641
▁GG	-642
▁GH	-643
▁GN	-644
▁GO	-645
▁GR	-646
▁GS	-647
▁GT	-648
▁Ga	-649
▁Gd	-650
▁Gf	-651
▁Gh	-652
▁Gm	-653
▁Go	-654
▁Gp	-655
▁Gq	-656
▁Gt	-657
▁Gv	-658
▁Gx	-659
▁HA	-660
▁HC	-661
▁HF	-662
▁HG	-663
▁HJ	-664
▁HN	-665
▁HR	-666
▁HX	-667
▁Hg	-668
▁Hh	-669
▁Hk	-670
▁Hm	-671
▁Hn	-672
▁Hp	-673
▁Hr	-674
▁Hs	-675
▁Hx	-676
▁ID	-677
▁IF	-678
▁IG	-679
▁IR	-680
▁IT	-681
▁IX	-682
▁IY	-683
▁IZ	-684
▁Ib	-685
▁Ie	-686
▁Ih	-687
▁Ii	-688
▁Ik	-689
▁Il	-690
▁Iq	-691
▁Iv	-692
▁Iz	-693
▁JA	-694
▁JE	-695
▁JG	-696
▁JH	-697
▁JI	-698
▁JJ	-699
▁76	-700
▁Db	-701
▁FU	-702
▁Fg	-703
▁JQ	-704
▁JS	-705
▁JT	-706
▁JX	-707
▁Ja	-708
▁Jb	-709
▁Jd	-710
▁Je	-711
▁Ji	-712
▁Jl	-713
▁Jo	-714
▁Jt	-715
▁Jv	-716
▁KA	-717
▁KC	-718
▁KF	-719
▁KG	-720
▁KH	-721
▁KJ	-722
▁KN	-723
▁KQ	-724
▁KY	-725
▁Ke	-726
▁Kk	-727
▁Ku	-728
▁Kx	-729
▁Ky	-730
▁LE	-731
▁LF	-732
▁LG	-733
▁LL	-734
▁LM	-735
▁LN	-736
▁LR	-737
▁LS	-738
▁LT	-739
▁LU	-740
▁LX	-741
▁LZ	-742
▁Lh	-743
▁Li	-744
▁Ln	-745
▁Ls	-746
▁Lt	-747
▁Lv	-748
▁Lw	-749
▁MA	-750
▁ME	-751
▁MF	-752
▁MI	-753
▁MK	-754
▁ML	-755
▁MM	-756
▁MN	-757
▁MO	-758
▁MS	-759
▁MT	-760
▁MZ	-761
▁Me	-762
▁Mf	-763
▁Mh	-764
▁Ml	-765
▁Mr	-766
▁Ms	-767
▁Mu	-768
▁My	-769
▁NA	-770
▁NB	-771
▁NC	-772
▁ND	-773
▁NE	-774
▁NF	-775
▁NK	-776
▁NP	-777
▁NQ	-778
▁NR	-779
▁NS	-780
▁NT	-781
▁NV	-782
▁NW	-783
▁NZ	-784
▁Nc	-785
▁Nd	-786
▁Ne	-787
▁Ng	-788
▁Nh	-789
▁Ni	-790
▁Nl	-791
▁Nm	-792
▁Nq	-793
▁Ns	-794
▁Nt	-795
▁Ny	-796
▁Nz	-797
▁OC	-798
▁OF	-799
▁CN	-800
▁Co	-801
▁EE	-802
▁GK	-803
▁GL	-804
▁GX	-805
▁Jw	-806
▁Lb	-807
▁Nb	-808
▁OH	-809
▁OI	-810
▁OK	-811
▁OL	-812
▁OM	-813
▁OO	-814
▁OQ	-815
▁OX	-816
▁OY	-817
▁Oa	-818
▁Oc	-819
▁Od	-820
▁Og	-821
▁Oh	-822
▁Oi	-823
▁Oj	-824
▁Ok	-825
▁Ol	-826
▁Op	-827
▁Oq	-828
▁Os	-829
▁Ot	-830
▁Ou	-831
▁Ov	-832
▁Oy	-833
▁Oz	-834
▁PA	-835
▁PC	-836
▁PE	-837
▁PF	-838
▁PH	-839
▁PL	-840
▁PN	-841
▁PQ	-842
▁PS	-843
▁PT	-844
▁PU	-845
▁PW	-846
▁PY	-847
▁PZ	-848
▁Pa	-849
▁Pb	-850
▁Pc	-851
▁Pd	-852
▁Pf	-853
▁Pg	-854
▁Pi	-855
▁Pm	-856
▁Po	-857
▁Pp	-858
▁Pr	-859
▁Ps	-860
▁Pv	-861
▁Py	-862
▁QD	-863
▁QG	-864
▁QH	-865
▁QJ	-866
▁QP	-867
▁QQ	-868
▁QW	-869
▁QX	-870
▁QZ	-871
▁Qa	-872
▁Qh	-873
▁Qj	-874
▁Qk	-875
▁Qm	-876
▁Qn	-877
▁Qv	-878
▁Qx	-879
▁RD	-880
▁RN	-881
▁RQ	-882
▁RR	-883
▁RV	-884
▁RW	-885
▁Rd	-886
▁Rh	-887
▁Rj	-888
▁Rm	-889
▁Rt	-890
▁Ru	-891
▁Rv	-892
▁Rw	-893
▁Ry	-894
▁SB	-895
▁SC	-896
▁SD	-897
▁SF	-898
▁SK	-899
▁Ch	-900
▁DH	-901
▁DM	-902
▁HS	-903
▁IS	-904
▁Iu	-905
▁NJ	-906
▁No	-907
▁OE	-908
▁OT	-909
▁Oe	-910
▁SN	-911
▁SO	-912
▁SP	-913
▁SQ	-914
▁SR	-915
▁SS	-916
▁SU	-917
▁SV	-918
▁SX	-919
▁SY	-920
▁SZ	-921
▁Sa	-922
▁Sb	-923
▁Sc	-924
▁Sh	-925
▁Si	-926
▁Sj	-927
▁Sn	-928
▁So	-929
▁Sq	-930
▁Sr	-931
▁Su	-932
▁Sv	-933
▁Sw	-934
▁Sy	-935
▁Sz	-936
▁TA	-937
▁TB	-938
▁TC	-939
▁TD	-940
▁TE	-941
▁TF	-942
▁TG	-943
▁TH	-944
▁TI	-945
▁TJ	-946
▁TK	-947
▁TL	-948
▁TM	-949
▁TN	-950
▁TO	-951
▁TP	-952
▁TQ	-953
▁TR	-954
▁TS	-955
▁TT	-956
▁TU	-957
▁TV	-958
▁TW	-959
▁TX	-960
▁TY	-961
▁TZ	-962
▁Tb	-963
▁Tc	-964
▁Td	-965
▁Te	-966
▁Tf	-967
▁Tg	-968
▁Th	-969
▁Ti	-970
▁Tj	-971
▁Tk	-972
▁Tl	-973
▁Tm	-974
▁Tn	-975
▁To	-976
▁Tp	-977
▁Tq	-978
▁Tr	-979
▁Ts	-980
▁Tt	-981
▁Tu	-982
▁Tv	-983
▁Tw	-984
▁Tx	-985
▁Ty	-986
▁Tz	-987
▁UB	-988
▁UC	-989
▁UE	-990
▁UK	-991
▁UX	-992
▁UY	-993
▁Uc	-994
▁Ug	-995
▁Uh	-996
▁Ui	-997
▁Uk	-998
▁Up	-999
▁04	-1000
▁29	-1001
▁Aw	-1002
▁Bw	-1003
▁Dv	-1004
▁Dw	-1005
▁HT	-1006
▁HY	-1007
▁Hy	-1008
▁Ia	-1009
▁JB	-1010
▁JL	-1011
▁Jp	-1012
▁La	-1013
▁NG	-1014
▁NH	-1015
▁NI	-1016
▁NL	-1017
▁NM	-1018
▁NN	-1019
▁NO	-1020
▁NU	-1021
▁NX	-1022
▁NY	-1023
▁Nf	-1024
▁Nj	-1025
▁Nk	-1026
▁Nn	-1027
▁Np	-1028
▁Nr	-1029
▁OG	-1030
▁Pw	-1031
▁RA	-1032
▁SI	-1033
▁Sd	-1034
▁Uq	-1035
▁Ur	-1036
▁Uv	-1037
▁Ux	-1038
▁Uy	-1039
▁VC	-1040
▁VG	-1041
▁VH	-1042
▁VN	-1043
▁VO	-1044
▁VP	-1045
▁VT	-1046
▁VV	-1047
▁VX	-1048
▁Vd	-1049
▁Vf	-1050
▁Vl	-1051
▁Vq	-1052
▁Vr	-1053
▁Vt	-1054
▁Vv	-1055
▁Vy	-1056
▁Vz	-1057
▁WB	-1058
▁WC	-1059
▁WE	-1060
▁WF	-1061
▁WG	-1062
▁WI	-1063
▁WJ	-1064
▁WK	-1065
▁WL	-1066
▁WO	-1067
▁WQ	-1068
▁WR	-1069
▁WS	-1070
▁WT	-1071
▁WU	-1072
▁WW	-1073
▁Wd	-1074
▁Wg	-1075
▁Wi	-1076
▁Wm	-1077
▁Wo	-1078
▁Wp	-1079
▁Wq	-1080
▁Wr	-1081
▁Wv	-1082
▁Ww	-1083
▁Wx	-1084
▁Wz	-1085
▁XA	-1086
▁XB	-1087
▁XG	-1088
▁XL	-1089
▁XM	-1090
▁XP	-1091
▁XS	-1092
▁XT	-1093
▁Xa	-1094
▁Xb	-1095
▁Xc	-1096
▁Xf	-1097
▁Xj	-1098
▁Xo	-1099
▁16	-1100
▁23	-1101
▁AN	-1102
▁Fn	-1103
▁Mn	-1104
▁Nu	-1105
▁Nv	-1106
▁Nw	-1107
▁Nx	-1108
▁Qr	-1109
▁Qy	-1110
▁RL	-1111
▁Rg	-1112
▁Rp	-1113
▁SA	-1114
▁SE	-1115
▁SG	-1116
▁SH	-1117
▁SJ	-1118
▁SL	-1119
▁SM	-1120
▁WA	-1121
▁WD	-1122
▁WH	-1123
▁WM	-1124
▁WN	-1125
▁WP	-1126
▁WV	-1127
▁WX	-1128
▁WY	-1129
▁WZ	-1130
▁Wa	-1131
▁Wb	-1132
▁Wc	-1133
▁Wf	-1134
▁Wh	-1135
▁Wj	-1136
▁Wk	-1137
▁Wl	-1138
▁Wn	-1139
▁Ws	-1140
▁Wt	-1141
▁Wu	-1142
▁Wy	-1143
▁Xp	-1144
▁Xt	-1145
▁YE	-1146
▁YH	-1147
▁YL	-1148
▁YT	-1149
▁YU	-1150
▁Ya	-1151
▁Yd	-1152
▁Yh	-1153
▁Yi	-1154
▁Yl	-1155
▁Yt	-1156
▁Yv	-1157
▁ZA	-1158
▁ZE	-1159
▁ZG	-1160
▁ZL	-1161
▁ZN	-1162
▁ZO	-1163
▁ZP	-1164
▁ZS	-1165
▁ZT	-1166
▁ZU	-1167
▁ZX	-1168
▁Zc	-1169
▁Zd	-1170
▁Zj	-1171
▁Zk	-1172
▁Zl	-1173
▁Zo	-1174
▁Zq	-1175
▁Zr	-1176
▁Zt	-1177
▁Zv	-1178
▁aA	-1179
▁aB	-1180
▁aC	-1181
▁aD	-1182
▁aE	-1183
▁aF	-1184
▁aG	-1185
▁aH	-1186
▁aI	-1187
▁aJ	-1188
▁aK	-1189
▁aL	-1190
▁aM	-1191
▁aN	-1192
▁aO	-1193
▁aP	-1194
▁aQ	-1195
▁aR	-1196
▁aS	-1197
▁aT	-1198
▁aU	-1199
▁AA	-1200
▁AB	-1201
▁AF	-1202
▁AG	-1203
▁AI	-1204
▁AM	-1205
▁AP	-1206
▁AR	-1207
▁AV	-1208
▁AW	-1209
▁AX	-1210
▁AZ	-1211
▁Ac	-1212
▁Ad	-1213
▁Af	-1214
▁Ag	-1215
▁Ah	-1216
▁Ai	-1217
▁Aj	-1218
▁Al	-1219
▁Am	-1220
▁Ao	-1221
▁Ap	-1222
▁Aq	-1223
▁Ar	-1224
▁Au	-1225
▁Av	-1226
▁Dx	-1227
▁FJ	-1228
▁Fw	-1229
▁JK	-1230
▁LA	-1231
▁LB	-1232
▁LC	-1233
▁LD	-1234
▁LH	-1235
▁LI	-1236
▁LJ	-1237
▁LK	-1238
▁LO	-1239
▁LP	-1240
▁LQ	-1241
▁LV	-1242
▁LW	-1243
▁LY	-1244
▁Lc	-1245
▁Ld	-1246
▁Le	-1247
▁Lf	-1248
▁Lg	-1249
▁Lj	-1250
▁Lk	-1251
▁Ll	-1252
▁Lm	-1253
▁Lo	-1254
▁Lp	-1255
▁Lq	-1256
▁Lr	-1257
▁Lu	-1258
▁Lx	-1259
▁Ly	-1260
▁OA	-1261
▁OB	-1262
▁OD	-1263
▁OJ	-1264
▁ON	-1265
▁OP	-1266
▁OR	-1267
▁OS	-1268
▁OU	-1269
▁OV	-1270
▁OW	-1271
▁OZ	-1272
▁Ob	-1273
▁Of	-1274
▁Oo	-1275
▁Or	-1276
▁Ow	-1277
▁Ox	-1278
▁Qg	-1279
▁ST	-1280
▁SW	-1281
▁Se	-1282
▁Sf	-1283
▁Sg	-1284
▁Sk	-1285
▁Sl	-1286
▁Sm	-1287
▁Sp	-1288
▁Ss	-1289
▁Sx	-1290
▁Uu	-1291
▁YB	-1292
▁YZ	-1293
▁Zf	-1294
▁aV	-1295
▁aW	-1296
▁aX	-1297
▁aY	-1298
▁aZ	-1299
▁68	-1300
▁BQ	-1301
▁Bv	-1302
▁Ed	-1303
▁Ej	-1304
▁FW	-1305
▁Gi	-1306
▁Hf	-1307
▁IA	-1308
▁IB	-1309
▁IC	-1310
▁IE	-1311
▁IH	-1312
▁II	-1313
▁IJ	-1314
▁IK	-1315
▁IL	-1316
▁IM	-1317
▁IN	-1318
▁IO	-1319
▁IP	-1320
▁IQ	-1321
▁IU	-1322
▁IV	-1323
▁IW	-1324
▁Ic	-1325
▁Id	-1326
▁If	-1327
▁Ig	-1328
▁Ij	-1329
▁Im	-1330
▁Io	-1331
▁Ip	-1332
▁Ir	-1333
▁It	-1334
▁Iw	-1335
▁Ix	-1336
▁Iy	-1337
▁Jx	-1338
▁Lz	-1339
▁MB	-1340
▁MC	-1341
▁MD	-1342
▁MG	-1343
▁MH	-1344
▁MJ	-1345
▁MP	-1346
▁MQ	-1347
▁MR	-1348
▁MU	-1349
▁MV	-1350
▁MW	-1351
▁MX	-1352
▁MY	-1353
▁Ma	-1354
▁Mb	-1355
▁Mc	-1356
▁Md	-1357
▁Mg	-1358
▁Mj	-1359
▁Mk	-1360
▁Mm	-1361
▁Mo	-1362
▁Mp	-1363
▁Mq	-1364
▁Mt	-1365
▁Mv	-1366
▁Mw	-1367
▁Mx	-1368
▁Mz	-1369
▁PD	-1370
▁RB	-1371
▁RC	-1372
▁RE	-1373
▁RF	-1374
▁RG	-1375
▁RH	-1376
▁RI	-1377
▁RJ	-1378
▁RK	-1379
▁RM	-1380
▁RO	-1381
▁RP	-1382
▁RS	-1383
▁RT	-1384
▁RU	-1385
▁RX	-1386
▁RY	-1387
▁RZ	-1388
▁Ra	-1389
▁UD	-1390
▁Uz	-1391
▁Xy	-1392
▁ZZ	-1393
▁aa	-1394
▁ac	-1395
▁ad	-1396
▁ae	-1397
▁af	-1398
▁ag	-1399
▁BG	-1400
▁BT	-1401
▁CA	-1402
▁CC	-1403
▁CD	-1404
▁CE	-1405
▁CF	-1406
▁CG	-1407
▁Cy	-1408
▁DF	-1409
▁DL	-1410
▁Gu	-1411
▁HB	-1412
▁HD	-1413
▁HE	-1414
▁HH	-1415
▁HI	-1416
▁HK	-1417
▁HL	-1418
▁HM	-1419
▁HO	-1420
▁HP	-1421
▁HQ	-1422
▁HU	-1423
▁HV	-1424
▁HW	-1425
▁HZ	-1426
▁Ha	-1427
▁Hb	-1428
▁Hc	-1429
▁Hd	-1430
▁He	-1431
▁Hi	-1432
▁Hj	-1433
▁Hl	-1434
▁Ho	-1435
▁Hq	-1436
▁Ht	-1437
▁Hu	-1438
▁Hv	-1439
▁Hw	-1440
▁Hz	-1441
▁PX	-1442
▁QE	-1443
▁Rb	-1444
▁Rc	-1445
▁Rf	-1446
▁Ri	-1447
▁Rk	-1448
▁Rl	-1449
▁Rn	-1450
▁Ro	-1451
▁Rq	-1452
▁Rr	-1453
▁Rs	-1454
▁Rx	-1455
▁Rz	-1456
▁UQ	-1457
▁Vi	-1458
▁YC	-1459
▁ah	-1460
▁ai	-1461
▁aj	-1462
▁ak	-1463
▁al	-1464
▁am	-1465
▁ao	-1466
▁aq	-1467
▁ar	-1468
▁at	-1469
▁au	-1470
▁av	-1471
▁aw	-1472
▁ax	-1473
▁ay	-1474
▁az	-1475
▁bA	-1476
▁bB	-1477
▁bC	-1478
▁bD	-1479
▁bE	-1480
▁bF	-1481
▁bG	-1482
▁bH	-1483
▁bI	-1484
▁bJ	-1485
▁bK	-1486
▁bL	-1487
▁bM	-1488
▁bN	-1489
▁bO	-1490
▁bP	-1491
▁bQ	-1492
▁bR	-1493
▁bS	-1494
▁bT	-1495
▁bU	-1496
▁bV	-1497
▁bW	-1498
▁bX	-1499
▁Bk	-1500
▁CH	-1501
▁CI	-1502
▁CJ	-1503
▁CM	-1504
▁CO	-1505
▁CP	-1506
▁CX	-1507
▁CY	-1508
▁CZ	-1509
▁Ca	-1510
▁Cc	-1511
▁Cd	-1512
▁Ce	-1513
▁Cg	-1514
▁Ci	-1515
▁Cj	-1516
▁Cq	-1517
▁Cr	-1518
▁Cu	-1519
▁Cv	-1520
▁Dp	-1521
▁GA	-1522
▁GB	-1523
▁GD	-1524
▁GE	-1525
▁GI	-1526
▁GJ	-1527
▁GM	-1528
▁GP	-1529
▁GQ	-1530
▁GU	-1531
▁GV	-1532
▁GW	-1533
▁GY	-1534
▁GZ	-1535
▁Gb	-1536
▁Gc	-1537
▁Ge	-1538
▁Gg	-1539
▁Gj	-1540
▁Gk	-1541
▁Gl	-1542
▁Gn	-1543
▁Gr	-1544
▁Gs	-1545
▁Gw	-1546
▁Gy	-1547
▁Gz	-1548
▁KK	-1549
▁QA	-1550
▁QB	-1551
▁QC	-1552
▁QF	-1553
▁QI	-1554
▁QK	-1555
▁QL	-1556
▁QM	-1557
▁QN	-1558
▁QO	-1559
▁QR	-1560
▁QS	-1561
▁QT	-1562
▁QU	-1563
▁QV	-1564
▁QY	-1565
▁Qb	-1566
▁Qc	-1567
▁Qd	-1568
▁Qe	-1569
▁Qf	-1570
▁Qi	-1571
▁Ql	-1572
▁Qo	-1573
▁Qp	-1574
▁Qq	-1575
▁Qs	-1576
▁Qt	-1577
▁Qw	-1578
▁Qz	-1579
▁Va	-1580
▁Vb	-1581
▁XQ	-1582
▁XY	-1583
▁YA	-1584
▁YD	-1585
▁YF	-1586
▁YG	-1587
▁YI	-1588
▁YJ	-1589
▁YK	-1590
▁YM	-1591
▁Zi	-1592
▁bY	-1593
▁bZ	-1594
▁ba	-1595
▁bb	-1596
▁bc	-1597
▁bd	-1598
▁bf	-1599
▁Dy	-1600
▁EA	-1601
▁EB	-1602
▁EC	-1603
▁ED	-1604
▁EF	-1605
▁EG	-1606
▁EI	-1607
▁EK	-1608
▁EM	-1609
▁EN	-1610
▁EO	-1611
▁EP	-1612
▁EQ	-1613
▁ER	-1614
▁EU	-1615
▁EV	-1616
▁EW	-1617
▁EY	-1618
▁EZ	-1619
▁Eb	-1620
▁Ec	-1621
▁Eh	-1622
▁Ei	-1623
▁Ek	-1624
▁El	-1625
▁Em	-1626
▁Eo	-1627
▁Ep	-1628
▁Eq	-1629
▁Es	-1630
▁Et	-1631
▁Ev	-1632
▁Ex	-1633
▁Ey	-1634
▁FA	-1635
▁FB	-1636
▁FC	-1637
▁FD	-1638
▁FF	-1639
▁FG	-1640
▁FH	-1641
▁FI	-1642
▁FL	-1643
▁FN	-1644
▁FP	-1645
▁FS	-1646
▁FV	-1647
▁FZ	-1648
▁Fb	-1649
▁Fc	-1650
▁Fd	-1651
▁Kc	-1652
▁Kh	-1653
▁UF	-1654
▁UN	-1655
▁Vm	-1656
▁Vn	-1657
▁YN	-1658
▁YO	-1659
▁YP	-1660
▁YQ	-1661
▁YR	-1662
▁YS	-1663
▁YV	-1664
▁YW	-1665
▁YX	-1666
▁YY	-1667
▁Yb	-1668
▁Yc	-1669
▁Ye	-1670
▁Yf	-1671
▁Yg	-1672
▁Yj	-1673
▁Yk	-1674
▁Ym	-1675
▁Yn	-1676
▁Yo	-1677
▁Yp	-1678
▁Yq	-1679
▁Yr	-1680
▁Ys	-1681
▁Yu	-1682
▁Yw	-1683
▁Yx	-1684
▁Yy	-1685
▁Yz	-1686
▁bg	-1687
▁bh	-1688
▁bi	-1689
▁bj	-1690
▁bk	-1691
▁bm	-1692
▁bn	-1693
▁bp	-1694
▁bq	-1695
▁br	-1696
▁bs	-1697
▁bt	-1698
▁bu	-1699
▁Ff	-1700
▁Fh	-1701
▁Fi	-1702
▁Fj	-1703
▁Fk	-1704
▁Fl	-1705
▁Fo	-1706
▁Fp	-1707
▁Fq	-1708
▁Fr	-1709
▁Fv	-1710
▁Fy	-1711
▁Fz	-1712
▁	-1713
e	-1714
s	-1715
o	-1716
a	-1717
t	-1718
r	-1719
i	-1720
n	-1721
h	-1722
l	-1723
d	-1724
.	-1725
u	-1726
y	-1727
m	-1728
c	-1729
w	-1730
g	-1731
p	-1732
b	-1733
T	-1734
f	-1735
v	-1736
k	-1737
:	-1738
?	-1739
z	-1740
,	-1741
*	-1742
'	-1743
N	-1744
W	-1745
S	-1746
O	-1747
A	-1748
L	-1749
M	-1750
I	-1751
q	-1752
;	-1753
R	-1754
=	-1755
H	-1756
j	-1757
C	-1758
G	-1759
Q	-1760
Y	-1761
x	-1762
-	-1763
>	-1764
E	-1765
F	-1766
K	-1767
P	-1768
(	-1769
)	-1770
0	-1771
1	-1772
2	-1773
3	-1774
4	-1775
5	-1776
6	-1777
7	-1778
8	-1779
9	-1780
B	-1781
D	-1782
J	-1783
U	-1784
V	-1785
X	-1786
Z	-1787
