<pad>	0
<unk>	0
<s>	0
</s>	0
<A>	0
<B>	0
<C>	0
<D>	0
<0x00>	0
<0x01>	0
<0x02>	0
<0x03>	0
<0x04>	0
<0x05>	0
<0x06>	0
<0x07>	0
<0x08>	0
<0x09>	0
<0x0A>	0
<0x0B>	0
<0x0C>	0
<0x0D>	0
<0x0E>	0
<0x0F>	0
<0x10>	0
<0x11>	0
<0x12>	0
<0x13>	0
<0x14>	0
<0x15>	0
<0x16>	0
<0x17>	0
<0x18>	0
<0x19>	0
<0x1A>	0
<0x1B>	0
<0x1C>	0
<0x1D>	0
<0x1E>	0
<0x1F>	0
<0x20>	0
<0x21>	0
<0x22>	0
<0x23>	0
<0x24>	0
<0x25>	0
<0x26>	0
<0x27>	0
<0x28>	0
<0x29>	0
<0x2A>	0
<0x2B>	0
<0x2C>	0
<0x2D>	0
<0x2E>	0
<0x2F>	0
<0x30>	0
<0x31>	0
<0x32>	0
<0x33>	0
<0x34>	0
<0x35>	0
<0x36>	0
<0x37>	0
<0x38>	0
<0x39>	0
<0x3A>	0
<0x3B>	0
<0x3C>	0
<0x3D>	0
<0x3E>	0
<0x3F>	0
<0x40>	0
<0x41>	0
<0x42>	0
<0x43>	0
<0x44>	0
<0x45>	0
<0x46>	0
<0x47>	0
<0x48>	0
<0x49>	0
<0x4A>	0
<0x4B>	0
<0x4C>	0
<0x4D>	0
<0x4E>	0
<0x4F>	0
<0x50>	0
<0x51>	0
<0x52>	0
<0x53>	0
<0x54>	0
<0x55>	0
<0x56>	0
<0x57>	0
<0x58>	0
<0x59>	0
<0x5A>	0
<0x5B>	0
<0x5C>	0
<0x5D>	0
<0x5E>	0
<0x5F>	0
<0x60>	0
<0x61>	0
<0x62>	0
<0x63>	0
<0x64>	0
<0x65>	0
<0x66>	0
<0x67>	0
<0x68>	0
<0x69>	0
<0x6A>	0
<0x6B>	0
<0x6C>	0
<0x6D>	0
<0x6E>	0
<0x6F>	0
<0x70>	0
<0x71>	0
<0x72>	0
<0x73>	0
<0x74>	0
<0x75>	0
<0x76>	0
<0x77>	0
<0x78>	0
<0x79>	0
<0x7A>	0
<0x7B>	0
<0x7C>	0
<0x7D>	0
<0x7E>	0
<0x7F>	0
<0x80>	0
<0x81>	0
<0x82>	0
<0x83>	0
<0x84>	0
<0x85>	0
<0x86>	0
<0x87>	0
<0x88>	0
<0x89>	0
<0x8A>	0
<0x8B>	0
<0x8C>	0
<0x8D>	0
<0x8E>	0
<0x8F>	0
<0x90>	0
<0x91>	0
<0x92>	0
<0x93>	0
<0x94>	0
<0x95>	0
<0x96>	0
<0x97>	0
<0x98>	0
<0x99>	0
<0x9A>	0
<0x9B>	0
<0x9C>	0
<0x9D>	0
<0x9E>	0
<0x9F>	0
<0xA0>	0
<0xA1>	0
<0xA2>	0
<0xA3>	0
<0xA4>	0
<0xA5>	0
<0xA6>	0
<0xA7>	0
<0xA8>	0
<0xA9>	0
<0xAA>	0
<0xAB>	0
<0xAC>	0
<0xAD>	0
<0xAE>	0
<0xAF>	0
<0xB0>	0
<0xB1>	0
<0xB2>	0
<0xB3>	0
<0xB4>	0
<0xB5>	0
<0xB6>	0
<0xB7>	0
<0xB8>	0
<0xB9>	0
<0xBA>	0
<0xBB>	0
<0xBC>	0
<0xBD>	0
<0xBE>	0
<0xBF>	0
<0xC0>	0
<0xC1>	0
<0xC2>	0
<0xC3>	0
<0xC4>	0
<0xC5>	0
<0xC6>	0
<0xC7>	0
<0xC8>	0
<0xC9>	0
<0xCA>	0
<0xCB>	0
<0xCC>	0
<0xCD>	0
<0xCE>	0
<0xCF>	0
<0xD0>	0
<0xD1>	0
<0xD2>	0
<0xD3>	0
<0xD4>	0
<0xD5>	0
<0xD6>	0
<0xD7>	0
<0xD8>	0
<0xD9>	0
<0xDA>	0
<0xDB>	0
<0xDC>	0
<0xDD>	0
<0xDE>	0
<0xDF>	0
<0xE0>	0
<0xE1>	0
<0xE2>	0
<0xE3>	0
<0xE4>	0
<0xE5>	0
<0xE6>	0
<0xE7>	0
<0xE8>	0
<0xE9>	0
<0xEA>	0
<0xEB>	0
<0xEC>	0
<0xED>	0
<0xEE>	0
<0xEF>	0
<0xF0>	0
<0xF1>	0
<0xF2>	0
<0xF3>	0
<0xF4>	0
<0xF5>	0
<0xF6>	0
<0xF7>	0
<0xF8>	0
<0xF9>	0
<0xFA>	0
<0xFB>	0
<0xFC>	0
<0xFD>	0
<0xFE>	0
<0xFF>	0
▁s	-0
er	-1
at	-2
ns	-3
ic	-4
▁t	-5
on	-6
es	-7
it	-8
ra	-9
ion	-10
▁A	-11
ho	-12
he	-13
▁C	-14
▁a	-15
▁sit	-16
ation	-17
ee	-18
nsw	-19
hoic	-20
nswer	-21
▁situ	-22
hoices	-23
▁Answer	-24
▁Choices	-25
▁situation	-26
▁i	-27
▁c	-28
▁the	-29
▁w	-30
no	-31
re	-32
ct	-33
in	-34
▁b	-35
▁f	-36
▁is	-37
▁P	-38
ed	-39
th	-40
▁U	-41
een	-42
fer	-43
ice	-44
▁no	-45
ou	-46
▁W	-47
ract	-48
rans	-49
▁Uns	-50
▁Pract	-51
▁trans	-52
▁Unseen	-53
▁Practice	-54
▁transfer	-55
ar	-56
an	-57
▁m	-58
al	-59
▁x	-60
as	-61
nt	-62
▁Wh	-63
ing	-64
▁g	-65
▁l	-66
▁p	-67
▁u	-68
▁bo	-69
ater	-70
eed	-71
nd	-72
▁re	-73
▁water	-74
▁T	-75
le	-76
▁on	-77
▁st	-78
▁and	-79
ri	-80
▁3	-81
▁2	-82
▁d	-83
▁y	-84
ich	-85
▁both	-86
mp	-87
▁1	-88
ce	-89
ow	-90
▁n	-91
▁un	-92
▁Which	-93
▁I	-94
et	-95
gh	-96
im	-97
ly	-98
ol	-99
or	-100
ve	-101
wn	-102
▁e	-103
▁h	-104
kno	-105
▁to	-106
known	-107
▁4	-108
▁seed	-109
▁5	-110
id	-111
pe	-112
amp	-113
ang	-114
ent	-115
est	-116
▁ne	-117
hang	-118
▁nor	-119
▁What	-120
▁unknown	-121
▁6	-122
ue	-123
la	-124
▁S	-125
ast	-126
ate	-127
▁wh	-128
ount	-129
▁The	-130
▁lamp	-131
▁chang	-132
ay	-133
il	-134
is	-135
os	-136
qu	-137
up	-138
ur	-139
ut	-140
▁+	-141
▁H	-142
▁R	-143
▁v	-144
alt	-145
art	-146
ght	-147
her	-148
lat	-149
ree	-150
▁be	-151
▁dr	-152
▁fa	-153
▁it	-154
▁pl	-155
▁ra	-156
▁How	-157
▁are	-158
▁box	-159
▁has	-160
▁sou	-161
▁yes	-162
ction	-163
▁salt	-164
▁north	-165
▁not	-166
▁Y	-167
=0	-168
ab	-169
ad	-170
bb	-171
ck	-172
dd	-173
iv	-174
ms	-175
oo	-176
ro	-177
▁=	-178
▁k	-179
▁o	-180
any	-181
les	-182
oil	-183
one	-184
ove	-185
ply	-186
riv	-187
rou	-188
urn	-189
▁Is	-190
▁in	-191
▁li	-192
▁ma	-193
▁me	-194
▁se	-195
▁th	-196
ally	-197
arri	-198
bbit	-199
eeds	-200
heck	-201
laim	-202
ment	-203
peat	-204
▁Who	-205
▁add	-206
▁col	-207
▁cup	-208
▁dry	-209
▁for	-210
▁too	-211
▁wet	-212
ither	-213
▁many	-214
▁then	-215
▁what	-216
arried	-217
▁check	-218
▁stone	-219
▁change	-220
▁rabbit	-221
▁carried	-222
▁neither	-223
▁K	-224
rue	-225
▁0	-226
▁B	-227
▁L	-228
▁M	-229
▁N	-230
ha	-231
▁Se	-232
▁7	-233
▁6.	-234
se	-235
▁F	-236
+1	-237
+2	-238
??	-239
am	-240
ch	-241
ey	-242
ge	-243
ix	-244
ld	-245
op	-246
ot	-247
ox	-248
ps	-249
ss	-250
ua	-251
ug	-252
un	-253
us	-254
xt	-255
▁E	-256
▁G	-257
▁Q	-258
▁j	-259
=0.	-260
ame	-261
and	-262
ant	-263
arm	-264
ick	-265
ide	-266
int	-267
ive	-268
low	-269
ore	-270
ost	-271
our	-272
pen	-273
row	-274
the	-275
tra	-276
ule	-277
ure	-278
▁If	-279
▁Re	-280
▁St	-281
▁ar	-282
▁as	-283
▁ca	-284
▁cl	-285
▁co	-286
▁de	-287
▁if	-288
▁ri	-289
▁up	-290
able	-291
imes	-292
inal	-293
ives	-294
ixed	-295
quid	-296
rant	-297
rass	-298
reez	-299
west	-300
▁bug	-301
▁can	-302
▁equ	-303
▁fox	-304
▁gua	-305
▁ins	-306
▁jar	-307
▁key	-308
▁map	-309
▁one	-310
▁put	-311
▁rou	-312
▁set	-313
▁sho	-314
▁tin	-315
▁val	-316
▁was	-317
▁you	-318
icked	-319
ition	-320
rived	-321
thing	-322
▁Rule	-323
▁cold	-324
▁east	-325
▁gate	-326
▁grow	-327
▁most	-328
▁next	-329
▁once	-330
▁open	-331
▁same	-332
▁sand	-333
▁soil	-334
▁true	-335
▁turn	-336
▁warm	-337
theast	-338
▁Claim	-339
▁Count	-340
▁Start	-341
▁count	-342
▁feeds	-343
▁fixed	-344
▁freez	-345
▁later	-346
▁light	-347
▁plant	-348
▁reply	-349
▁rough	-350
▁seeds	-351
▁south	-352
▁start	-353
▁state	-354
▁times	-355
ranteed	-356
▁action	-357
▁picked	-358
▁repeat	-359
▁arrived	-360
▁nothing	-361
▁watered	-362
▁changing	-363
▁freezing	-364
▁guaranteed	-365
▁O	-366
ram	-367
▁Bram	-368
▁3.	-369
ina	-370
▁Lina	-371
av	-372
avi	-373
▁Tavi	-374
lue	-375
mar	-376
▁Omar	-377
▁blue	-378
eon	-379
▁Keon	-380
Zu	-381
▁Zu	-382
▁Zuri	-383
▁1.	-384
ira	-385
▁Mira	-386
ez	-387
nez	-388
▁Inez	-389
ki	-390
uki	-391
▁Yuki	-392
ik	-393
iko	-394
▁Niko	-395
sha	-396
▁Asha	-397
▁Sela	-398
▁8	-399
1.	-400
alse	-401
▁False	-402
4.	-403
'?	-404
):	-405
1;	-406
2,	-407
3,	-408
be	-409
en	-410
ew	-411
fa	-412
fi	-413
hi	-414
if	-415
io	-416
ir	-417
ll	-418
lt	-419
ma	-420
mb	-421
ng	-422
rt	-423
ru	-424
te	-425
ts	-426
xp	-427
▁'	-428
▁z	-429
+2.	-430
=0;	-431
=1;	-432
=4.	-433
>3,	-434
???	-435
ach	-436
ads	-437
ady	-438
ans	-439
ari	-440
ass	-441
ays	-442
bot	-443
ced	-444
ces	-445
con	-446
ctu	-447
dge	-448
dic	-449
eep	-450
ems	-451
eop	-452
epe	-453
eps	-454
ere	-455
ero	-456
ery	-457
ets	-458
fin	-459
for	-460
giv	-461
gno	-462
hip	-463
icy	-464
igh	-465
ile	-466
ilt	-467
ink	-468
ish	-469
iss	-470
ity	-471
kes	-472
lic	-473
lse	-474
moo	-475
oal	-476
oes	-477
ols	-478
ood	-479
oop	-480
oub	-481
par	-482
pla	-483
por	-484
rce	-485
red	-486
rom	-487
tal	-488
tle	-489
tru	-490
uit	-491
uld	-492
ust	-493
ymb	-494
▁1:	-495
▁2:	-496
▁2;	-497
▁7,	-498
▁Ap	-499
▁Ei	-500
▁It	-501
▁Li	-502
▁No	-503
▁To	-504
▁Un	-505
▁ag	-506
▁am	-507
▁an	-508
▁at	-509
▁by	-510
▁ev	-511
▁gl	-512
▁ho	-513
▁id	-514
▁of	-515
▁pa	-516
▁pr	-517
▁ro	-518
▁tw	-519
aled	-520
arge	-521
arms	-522
asma	-523
atch	-524
ated	-525
ates	-526
atis	-527
aybe	-528
cond	-529
ctor	-530
dict	-531
erfa	-532
erim	-533
erve	-534
fies	-535
fore	-536
here	-537
heth	-538
ions	-539
iven	-540
lean	-541
lect	-542
lete	-543
lows	-544
move	-545
mput	-546
oled	-547
olid	-548
osed	-549
oses	-550
race	-551
turn	-552
urns	-553
▁+1.	-554
▁+2,	-555
▁???	-556
▁Are	-557
▁You	-558
▁all	-559
▁ask	-560
▁bes	-561
▁but	-562
▁con	-563
▁cre	-564
▁dif	-565
▁exp	-566
▁few	-567
▁fol	-568
▁fun	-569
▁gas	-570
▁had	-571
▁icy	-572
▁imp	-573
▁inc	-574
▁ind	-575
▁int	-576
▁met	-577
▁now	-578
▁pot	-579
▁pro	-580
▁riv	-581
▁sha	-582
▁sun	-583
▁sup	-584
▁ten	-585
▁unc	-586
▁van	-587
▁way	-588
ables	-589
astic	-590
asure	-591
eeded	-592
eople	-593
epend	-594
ering	-595
giver	-596
gnore	-597
imate	-598
infor	-599
lated	-600
lding	-601
lting	-602
mally	-603
mooth	-604
ntion	-605
place	-606
ports	-607
roups	-608
trace	-609
▁Best	-610
▁Each	-611
▁Goal	-612
▁Move	-613
▁Soil	-614
▁Then	-615
▁Your	-616
▁adds	-617
▁been	-618
▁care	-619
▁cave	-620
▁does	-621
▁doub	-622
▁else	-623
▁face	-624
▁fair	-625
▁filt	-626
▁flat	-627
▁food	-628
▁four	-629
▁from	-630
▁gets	-631
▁high	-632
▁keep	-633
▁loop	-634
▁miss	-635
▁more	-636
▁move	-637
▁must	-638
▁near	-639
▁only	-640
▁rece	-641
▁reus	-642
▁samp	-643
▁says	-644
▁site	-645
▁stay	-646
▁stop	-647
▁suit	-648
▁symb	-649
▁test	-650
▁that	-651
▁this	-652
▁unre	-653
▁vari	-654
▁west	-655
▁zero	-656
cedure	-657
entity	-658
hanged	-659
hether	-660
inking	-661
lative	-662
mputed	-663
▁Apply	-664
▁Eight	-665
▁Final	-666
▁Grass	-667
▁Relat	-668
▁There	-669
▁Trace	-670
▁Where	-671
▁agree	-672
▁beads	-673
▁below	-674
▁claim	-675
▁clean	-676
▁color	-677
▁defin	-678
▁equal	-679
▁every	-680
▁faces	-681
▁final	-682
▁forms	-683
▁given	-684
▁gives	-685
▁glass	-686
▁grass	-687
▁harms	-688
▁items	-689
▁large	-690
▁loses	-691
▁makes	-692
▁maybe	-693
▁means	-694
▁needs	-695
▁paint	-696
▁print	-697
▁ready	-698
▁ridge	-699
▁right	-700
▁river	-701
▁robot	-702
▁satis	-703
▁separ	-704
▁short	-705
▁solid	-706
▁steps	-707
▁three	-708
▁total	-709
▁turns	-710
▁twice	-711
▁valid	-712
▁value	-713
▁watch	-714
▁which	-715
▁while	-716
▁young	-717
ctually	-718
diction	-719
eriment	-720
ionship	-721
tlement	-722
▁Liquid	-723
▁Repeat	-724
▁Select	-725
▁adding	-726
▁amount	-727
▁before	-728
▁beside	-729
▁closed	-730
▁contra	-731
▁cooled	-732
▁delete	-733
▁differ	-734
▁factor	-735
▁groups	-736
▁growth	-737
▁ignore	-738
▁implic	-739
▁inside	-740
▁instru	-741
▁liquid	-742
▁needed	-743
▁people	-744
▁plasma	-745
▁remove	-746
▁return	-747
▁sealed	-748
▁second	-749
▁shared	-750
▁should	-751
▁smooth	-752
▁source	-753
▁starts	-754
▁vanish	-755
ependent	-756
inforest	-757
▁Unknown	-758
▁climate	-759
▁creates	-760
▁doubles	-761
▁equally	-762
▁follows	-763
▁holding	-764
▁interve	-765
▁measure	-766
▁melting	-767
▁missing	-768
▁plastic	-769
▁rabbits	-770
▁repeats	-771
▁retrace	-772
▁samples	-773
▁symbols	-774
▁whether	-775
▁addition	-776
▁checking	-777
▁computed	-778
▁drinking	-779
▁function	-780
▁identity	-781
▁normally	-782
▁receives	-783
▁relative	-784
▁reusable	-785
▁suitable	-786
▁supports	-787
▁watering	-788
▁Counterfa	-789
▁agreement	-790
▁caregiver	-791
▁filtering	-792
▁northeast	-793
▁northwest	-794
▁procedure	-795
▁satisfies	-796
▁separated	-797
▁southeast	-798
▁southwest	-799
▁statement	-800
▁unchanged	-801
▁unrelated	-802
▁variables	-803
▁definition	-804
▁experiment	-805
▁rainforest	-806
▁settlement	-807
▁implication	-808
▁independent	-809
▁instruction	-810
▁Relationship	-811
▁intervention	-812
▁contradiction	-813
▁9	-814
▁True	-815
▁4.	-816
▁2.	-817
ND	-818
▁AND	-819
▁red	-820
▁OR	-821
▁10	-822
▁12	-823
▁5.	-824
▁0.	-825
▁9.	-826
▁8.	-827
▁7.	-828
▁13	-829
▁11	-830
▁16	-831
ty	-832
▁(	-833
emp	-834
empty	-835
▁10.	-836
▁11.	-837
▁12.	-838
▁15	-839
▁17	-840
▁20	-841
▁21	-842
▁13.	-843
▁14	-844
▁14.	-845
0.	-846
0;	-847
10	-848
11	-849
12	-850
13	-851
14	-852
15	-853
16	-854
17	-855
1:	-856
2.	-857
20	-858
21	-859
2:	-860
2;	-861
3.	-862
5.	-863
6.	-864
7,	-865
7.	-866
8.	-867
9.	-868
=1	-869
=4	-870
>3	-871
AN	-872
An	-873
Ap	-874
Ar	-875
As	-876
Be	-877
Br	-878
Ch	-879
Cl	-880
Co	-881
Ea	-882
Ei	-883
Fa	-884
Fi	-885
Go	-886
Gr	-887
Ho	-888
If	-889
In	-890
Is	-891
It	-892
Ke	-893
Li	-894
Mi	-895
Mo	-896
Ni	-897
No	-898
OR	-899
Om	-900
Pr	-901
Re	-902
Ru	-903
Se	-904
So	-905
St	-906
Ta	-907
Th	-908
To	-909
Tr	-910
Un	-911
Wh	-912
Yo	-913
Yu	-914
ac	-915
ag	-916
ai	-917
ak	-918
ap	-919
bi	-920
bl	-921
bo	-922
bu	-923
by	-924
ca	-925
cl	-926
co	-927
cr	-928
cu	-929
cy	-930
de	-931
dg	-932
di	-933
do	-934
dr	-935
ds	-936
du	-937
dy	-938
ea	-939
ec	-940
ef	-941
eg	-942
ei	-943
el	-944
em	-945
eo	-946
ep	-947
eq	-948
eu	-949
ev	-950
ex	-951
fe	-952
ff	-953
fl	-954
fo	-955
fr	-956
fu	-957
ga	-958
gi	-959
gl	-960
gn	-961
gr	-962
gu	-963
hr	-964
ht	-965
hw	-966
ia	-967
ie	-968
ig	-969
ip	-970
iq	-971
ja	-972
ke	-973
kn	-974
ko	-975
li	-976
lo	-977
ls	-978
lu	-979
me	-980
mi	-981
mo	-982
mu	-983
na	-984
nc	-985
ne	-986
nf	-987
ni	-988
nk	-989
nl	-990
nr	-991
ny	-992
oa	-993
ob	-994
oc	-995
od	-996
oe	-997
of	-998
oi	-999
om	-1000
ov	-1001
pa	-1002
pi	-1003
pl	-1004
po	-1005
pp	-1006
pr	-1007
pt	-1008
pu	-1009
rc	-1010
rf	-1011
rg	-1012
rm	-1013
rn	-1014
rr	-1015
rv	-1016
ry	-1017
sa	-1018
sf	-1019
sh	-1020
si	-1021
sk	-1022
sm	-1023
so	-1024
st	-1025
su	-1026
sw	-1027
sy	-1028
ta	-1029
tc	-1030
ti	-1031
tl	-1032
to	-1033
tr	-1034
tt	-1035
tu	-1036
tw	-1037
ub	-1038
uc	-1039
ui	-1040
uk	-1041
ul	-1042
va	-1043
vi	-1044
wa	-1045
we	-1046
wh	-1047
wi	-1048
ws	-1049
wt	-1050
xe	-1051
yb	-1052
ye	-1053
ym	-1054
yo	-1055
ys	-1056
ze	-1057
zi	-1058
▁?	-1059
▁Z	-1060
▁r	-1061
Ans	-1062
Bes	-1063
Bra	-1064
Cho	-1065
Fal	-1066
Fin	-1067
Gra	-1068
How	-1069
Lin	-1070
Pra	-1071
The	-1072
Tra	-1073
Uns	-1074
Who	-1075
You	-1076
abl	-1077
ace	-1078
act	-1079
aim	-1080
ain	-1081
ali	-1082
all	-1083
als	-1084
alu	-1085
ani	-1086
ara	-1087
are	-1088
arg	-1089
arr	-1090
asm	-1091
asu	-1092
atc	-1093
ati	-1094
ats	-1095
ave	-1096
ayb	-1097
bee	-1098
bes	-1099
bit	-1100
ble	-1101
bol	-1102
cat	-1103
cei	-1104
che	-1105
cto	-1106
dds	-1107
ded	-1108
din	-1109
dit	-1110
dou	-1111
eal	-1112
ean	-1113
ear	-1114
eas	-1115
eat	-1116
ect	-1117
edu	-1118
eem	-1119
eez	-1120
eit	-1121
ela	-1122
ele	-1123
end	-1124
erf	-1125
eri	-1126
erv	-1127
esi	-1128
ett	-1129
fee	-1130
gas	-1131
gat	-1132
ged	-1133
gin	-1134
gra	-1135
han	-1136
har	-1137
has	-1138
hat	-1139
hea	-1140
hec	-1141
hen	-1142
het	-1143
hic	-1144
hin	-1145
his	-1146
hol	-1147
hor	-1148
hou	-1149
iab	-1150
ict	-1151
ied	-1152
ies	-1153
ime	-1154
inf	-1155
ins	-1156
iqu	-1157
isf	-1158
ita	-1159
ite	-1160
ith	-1161
iti	-1162
its	-1163
itu	-1164
jar	-1165
ked	-1166
kee	-1167
kin	-1168
lan	-1169
lar	-1170
las	-1171
led	-1172
lem	-1173
let	-1174
lim	-1175
los	-1176
mal	-1177
man	-1178
mat	-1179
mes	-1180
mou	-1181
mpl	-1182
mpt	-1183
mpu	-1184
nct	-1185
nde	-1186
nee	-1187
nit	-1188
nor	-1189
not	-1190
now	-1191
nre	-1192
nse	-1193
nsf	-1194
nsh	-1195
nsi	-1196
nst	-1197
oic	-1198
old	-1199
oli	-1200
oll	-1201
olo	-1202
omp	-1203
onc	-1204
ond	-1205
onl	-1206
ons	-1207
ont	-1208
ool	-1209
ope	-1210
orm	-1211
ort	-1212
oth	-1213
oug	-1214
oun	-1215
oup	-1216
out	-1217
ows	-1218
per	-1219
pic	-1220
ple	-1221
rab	-1222
rac	-1223
rad	-1224
rai	-1225
ran	-1226
ras	-1227
rat	-1228
rea	-1229
rec	-1230
reg	-1231
rel	-1232
rem	-1233
rep	-1234
res	-1235
ret	-1236
reu	-1237
rid	-1238
rig	-1239
rin	-1240
rns	-1241
rob	-1242
roc	-1243
rri	-1244
rth	-1245
sab	-1246
sed	-1247
ses	-1248
sin	-1249
tar	-1250
tat	-1251
ted	-1252
tee	-1253
ter	-1254
thw	-1255
tic	-1256
tin	-1257
tit	-1258
ton	-1259
tur	-1260
ual	-1261
uat	-1262
uct	-1263
uid	-1264
upp	-1265
uri	-1266
uth	-1267
val	-1268
van	-1269
var	-1270
ved	-1271
ven	-1272
ver	-1273
ves	-1274
wat	-1275
wer	-1276
wes	-1277
whe	-1278
wic	-1279
wth	-1280
xed	-1281
yes	-1282
you	-1283
zer	-1284
zin	-1285
▁+1	-1286
▁+2	-1287
▁??	-1288
▁AN	-1289
▁Ar	-1290
▁As	-1291
▁Cl	-1292
▁Co	-1293
▁Ea	-1294
▁Go	-1295
▁In	-1296
▁Ke	-1297
▁Mi	-1298
▁Ni	-1299
▁Om	-1300
▁Ru	-1301
▁So	-1302
▁Ta	-1303
▁Th	-1304
▁Tr	-1305
▁Yu	-1306
▁ac	-1307
▁ad	-1308
▁al	-1309
▁bl	-1310
▁bu	-1311
▁ch	-1312
▁cr	-1313
▁cu	-1314
▁di	-1315
▁do	-1316
▁el	-1317
▁eq	-1318
▁ex	-1319
▁fe	-1320
▁fi	-1321
▁fl	-1322
▁fo	-1323
▁fr	-1324
▁fu	-1325
▁ge	-1326
▁gi	-1327
▁gr	-1328
▁gu	-1329
▁ha	-1330
▁hi	-1331
▁ic	-1332
▁ig	-1333
▁im	-1334
▁ke	-1335
▁la	-1336
▁lo	-1337
▁mi	-1338
▁mo	-1339
▁mu	-1340
▁pe	-1341
▁po	-1342
▁pu	-1343
▁sa	-1344
▁sh	-1345
▁si	-1346
▁sm	-1347
▁so	-1348
▁su	-1349
▁sy	-1350
▁te	-1351
▁ti	-1352
▁tr	-1353
▁tu	-1354
▁wa	-1355
▁we	-1356
Best	-1357
Move	-1358
Zuri	-1359
aint	-1360
alid	-1361
alue	-1362
ampl	-1363
ange	-1364
anis	-1365
arat	-1366
arts	-1367
atem	-1368
bles	-1369
ceiv	-1370
ctic	-1371
ddit	-1372
dent	-1373
ding	-1374
elat	-1375
ered	-1376
erin	-1377
esid	-1378
fact	-1379
ffer	-1380
ging	-1381
gree	-1382
hare	-1383
heas	-1384
hich	-1385
hold	-1386
hree	-1387
icat	-1388
ices	-1389
ight	-1390
imat	-1391
init	-1392
isfi	-1393
itab	-1394
iver	-1395
king	-1396
lace	-1397
lass	-1398
last	-1399
lati	-1400
mbol	-1401
mpty	-1402
need	-1403
nkno	-1404
nore	-1405
noth	-1406
nown	-1407
nsee	-1408
nshi	-1409
nsid	-1410
ntee	-1411
nter	-1412
ntit	-1413
olor	-1414
ooth	-1415
ople	-1416
ores	-1417
orms	-1418
orts	-1419
ough	-1420
outh	-1421
owth	-1422
pend	-1423
pply	-1424
qual	-1425
rain	-1426
reat	-1427
reem	-1428
ried	-1429
righ	-1430
rint	-1431
roup	-1432
rriv	-1433
sing	-1434
tart	-1435
ther	-1436
thin	-1437
ting	-1438
tion	-1439
trad	-1440
uara	-1441
usab	-1442
uted	-1443
vent	-1444
very	-1445
wice	-1446
xper	-1447
zing	-1448
▁Ans	-1449
▁Bra	-1450
▁Cho	-1451
▁Cla	-1452
▁Cou	-1453
▁Fal	-1454
▁Fin	-1455
▁Gra	-1456
▁Lin	-1457
▁Nik	-1458
▁Pra	-1459
▁Tav	-1460
▁Tra	-1461
▁act	-1462
▁bea	-1463
▁bee	-1464
▁bef	-1465
▁bel	-1466
▁car	-1467
▁che	-1468
▁cla	-1469
▁cle	-1470
▁cou	-1471
▁def	-1472
▁dou	-1473
▁eas	-1474
▁fac	-1475
▁fai	-1476
▁fee	-1477
▁fil	-1478
▁fin	-1479
▁fix	-1480
▁foo	-1481
▁fou	-1482
▁fro	-1483
▁gat	-1484
▁get	-1485
▁giv	-1486
▁gra	-1487
▁har	-1488
▁ite	-1489
▁kee	-1490
▁lar	-1491
▁lat	-1492
▁loo	-1493
▁los	-1494
▁mak	-1495
▁man	-1496
▁may	-1497
▁mea	-1498
▁mel	-1499
▁mis	-1500
▁mos	-1501
▁mus	-1502
▁nex	-1503
▁onc	-1504
▁onl	-1505
▁ope	-1506
▁pic	-1507
▁rab	-1508
▁rea	-1509
▁rec	-1510
▁rel	-1511
▁rem	-1512
▁rep	-1513
▁ret	-1514
▁reu	-1515
▁rid	-1516
▁sal	-1517
▁sam	-1518
▁san	-1519
▁sat	-1520
▁say	-1521
▁sec	-1522
▁see	-1523
▁sep	-1524
▁sol	-1525
▁sta	-1526
▁ste	-1527
▁sto	-1528
▁tes	-1529
▁tim	-1530
▁tot	-1531
▁tra	-1532
▁tur	-1533
▁unk	-1534
▁var	-1535
▁war	-1536
▁wat	-1537
▁wes	-1538
▁whe	-1539
▁whi	-1540
▁zer	-1541
anged	-1542
anish	-1543
ariab	-1544
bbits	-1545
chang	-1546
cking	-1547
ctice	-1548
dding	-1549
edure	-1550
entit	-1551
epeat	-1552
eside	-1553
factu	-1554
hange	-1555
hared	-1556
heast	-1557
iffer	-1558
ilter	-1559
iment	-1560
iquid	-1561
latio	-1562
mbols	-1563
mount	-1564
mplic	-1565
ndent	-1566
ndepe	-1567
nseen	-1568
nsfer	-1569
nship	-1570
nside	-1571
nteed	-1572
ollow	-1573
ontra	-1574
orest	-1575
parat	-1576
peats	-1577
regiv	-1578
relat	-1579
right	-1580
river	-1581
robot	-1582
roced	-1583
rough	-1584
rowth	-1585
ually	-1586
uppor	-1587
▁Answ	-1588
▁Sele	-1589
▁Ther	-1590
▁Wher	-1591
▁Whic	-1592
▁bead	-1593
▁clim	-1594
▁clos	-1595
▁comp	-1596
▁cool	-1597
▁dele	-1598
▁drin	-1599
▁fact	-1600
▁feed	-1601
▁free	-1602
▁give	-1603
▁grou	-1604
▁hold	-1605
▁igno	-1606
▁inst	-1607
▁liqu	-1608
▁meas	-1609
▁melt	-1610
▁need	-1611
▁neit	-1612
▁norm	-1613
▁nort	-1614
▁noth	-1615
▁peop	-1616
▁pick	-1617
▁plan	-1618
▁plas	-1619
▁rabb	-1620
▁rain	-1621
▁read	-1622
▁repe	-1623
▁seal	-1624
▁sett	-1625
▁shor	-1626
▁shou	-1627
▁smoo	-1628
▁sour	-1629
▁sout	-1630
▁star	-1631
▁stat	-1632
▁ston	-1633
▁youn	-1634
amples	-1635
anging	-1636
atered	-1637
atisfi	-1638
ceives	-1639
ervent	-1640
forest	-1641
issing	-1642
itable	-1643
lement	-1644
nction	-1645
nknown	-1646
nterve	-1647
ollows	-1648
oubles	-1649
ounter	-1650
qually	-1651
reates	-1652
thwest	-1653
tradic	-1654
uarant	-1655
uation	-1656
uction	-1657
usable	-1658
xperim	-1659
ymbols	-1660
▁Choic	-1661
▁addit	-1662
▁arriv	-1663
▁carri	-1664
▁drink	-1665
▁ident	-1666
▁plast	-1667
▁relat	-1668
▁retra	-1669
▁secon	-1670
▁unkno	-1671
▁wheth	-1672
atement	-1673
atering	-1674
erfactu	-1675
hanging	-1676
hecking	-1677
ication	-1678
inition	-1679
lations	-1680
parated	-1681
ractice	-1682
ransfer	-1683
reement	-1684
reezing	-1685
regiver	-1686
related	-1687
ruction	-1688
tradict	-1689
uitable	-1690
unction	-1691
▁comput	-1692
▁indepe	-1693
▁northe	-1694
▁northw	-1695
▁proced	-1696
▁settle	-1697
▁southe	-1698
▁suppor	-1699
ariables	-1700
atisfies	-1701
finition	-1702
iltering	-1703
lication	-1704
truction	-1705
▁Counter	-1706
▁experim	-1707
▁guarant	-1708
▁rainfor	-1709
▁unchang	-1710
ervention	-1711
▁independ	-1712
▁	-1713
e	-1714
t	-1715
s	-1716
n	-1717
i	-1718
a	-1719
o	-1720
r	-1721
h	-1722
c	-1723
:	-1724
u	-1725
l	-1726
w	-1727
d	-1728
f	-1729
m	-1730
p	-1731
g	-1732
A	-1733
C	-1734
.	-1735
b	-1736
?	-1737
y	-1738
x	-1739
k	-1740
P	-1741
v	-1742
U	-1743
W	-1744
1	-1745
2	-1746
T	-1747
3	-1748
=	-1749
,	-1750
+	-1751
4	-1752
I	-1753
5	-1754
0	-1755
6	-1756
S	-1757
R	-1758
z	-1759
;	-1760
H	-1761
q	-1762
Y	-1763
K	-1764
N	-1765
B	-1766
L	-1767
M	-1768
7	-1769
F	-1770
'	-1771
E	-1772
G	-1773
Q	-1774
j	-1775
O	-1776
Z	-1777
8	-1778
(	-1779
)	-1780
>	-1781
9	-1782
D	-1783
